/* Copyright 2020 The TensorFlow Authors. All Rights Reserved.

Licensed under the Apache License, Version 2.0 (the "License");
you may not use this file except in compliance with the License.
You may obtain a copy of the License at

    http://www.apache.org/licenses/LICENSE-2.0

Unless required by applicable law or agreed to in writing, software
distributed under the License is distributed on an "AS IS" BASIS,
WITHOUT WARRANTIES OR CONDITIONS OF ANY KIND, either express or implied.
See the License for the specific language governing permissions and
limitations under the License.
==============================================================================*/

// Automatically created from a TensorFlow Lite flatbuffer using the command:
// xxd -i model.tflite > model.cc

// This is a standard TensorFlow Lite model file that has been converted into a
// C data array, so it can be easily compiled into a binary for devices that
// don't have a file system.

// See train/README.md for a full description of the creation process.

#include "model.h"

// Keep model aligned to 8 bytes to guarantee aligned 64-bit accesses.
alignas(8) const unsigned char g_model[] {
  0x1c, 0x00, 0x00, 0x00, 0x54, 0x46, 0x4c, 0x33, 0x14, 0x00, 0x20, 0x00,
  0x04, 0x00, 0x08, 0x00, 0x0c, 0x00, 0x10, 0x00, 0x14, 0x00, 0x00, 0x00,
  0x18, 0x00, 0x1c, 0x00, 0x14, 0x00, 0x00, 0x00, 0x03, 0x00, 0x00, 0x00,
  0x18, 0x00, 0x00, 0x00, 0x1c, 0x00, 0x00, 0x00, 0xa8, 0x00, 0x00, 0x00,
  0x1c, 0x00, 0x00, 0x00, 0x50, 0x00, 0x00, 0x00, 0x48, 0x00, 0x00, 0x00,
  0x01, 0x00, 0x00, 0x00, 0xc8, 0x02, 0x00, 0x00, 0x01, 0x00, 0x00, 0x00,
  0xb0, 0x00, 0x00, 0x00, 0x0c, 0x00, 0x00, 0x00, 0x88, 0x12, 0x00, 0x00,
  0x84, 0x12, 0x00, 0x00, 0x44, 0x11, 0x00, 0x00, 0xc4, 0x10, 0x00, 0x00,
  0xf4, 0x0f, 0x00, 0x00, 0xd8, 0x05, 0x00, 0x00, 0xb8, 0x04, 0x00, 0x00,
  0x38, 0x03, 0x00, 0x00, 0x68, 0x12, 0x00, 0x00, 0x64, 0x12, 0x00, 0x00,
  0x60, 0x12, 0x00, 0x00, 0x3c, 0x00, 0x00, 0x00, 0x00, 0x00, 0x00, 0x00,
  0x01, 0x00, 0x00, 0x00, 0x0c, 0x00, 0x00, 0x00, 0x08, 0x00, 0x0c, 0x00,
  0x04, 0x00, 0x08, 0x00, 0x08, 0x00, 0x00, 0x00, 0x08, 0x00, 0x00, 0x00,
  0x0b, 0x00, 0x00, 0x00, 0x13, 0x00, 0x00, 0x00, 0x6d, 0x69, 0x6e, 0x5f,
  0x72, 0x75, 0x6e, 0x74, 0x69, 0x6d, 0x65, 0x5f, 0x76, 0x65, 0x72, 0x73,
  0x69, 0x6f, 0x6e, 0x00, 0x22, 0xef, 0xff, 0xff, 0x04, 0x00, 0x00, 0x00,
  0x10, 0x00, 0x00, 0x00, 0x31, 0x2e, 0x35, 0x2e, 0x30, 0x00, 0x00, 0x00,
  0x00, 0x00, 0x00, 0x00, 0x00, 0x00, 0x00, 0x00, 0x0f, 0x00, 0x00, 0x00,
  0x4d, 0x4c, 0x49, 0x52, 0x20, 0x43, 0x6f, 0x6e, 0x76, 0x65, 0x72, 0x74,
  0x65, 0x64, 0x2e, 0x00, 0x00, 0x00, 0x0e, 0x00, 0x18, 0x00, 0x04, 0x00,
  0x08, 0x00, 0x0c, 0x00, 0x10, 0x00, 0x14, 0x00, 0x0e, 0x00, 0x00, 0x00,
  0x14, 0x00, 0x00, 0x00, 0x3c, 0x00, 0x00, 0x00, 0x40, 0x00, 0x00, 0x00,
  0x44, 0x00, 0x00, 0x00, 0x50, 0x00, 0x00, 0x00, 0x0a, 0x00, 0x00, 0x00,
  0x78, 0x11, 0x00, 0x00, 0x04, 0x11, 0x00, 0x00, 0x18, 0x10, 0x00, 0x00,
  0xa4, 0x0f, 0x00, 0x00, 0xe8, 0x0e, 0x00, 0x00, 0xcc, 0x04, 0x00, 0x00,
  0xb0, 0x03, 0x00, 0x00, 0xe8, 0x01, 0x00, 0x00, 0xec, 0x00, 0x00, 0x00,
  0x60, 0x00, 0x00, 0x00, 0x01, 0x00, 0x00, 0x00, 0x00, 0x00, 0x00, 0x00,
  0x01, 0x00, 0x00, 0x00, 0x09, 0x00, 0x00, 0x00, 0x03, 0x00, 0x00, 0x00,
  0x70, 0x01, 0x00, 0x00, 0x98, 0x00, 0x00, 0x00, 0x10, 0x00, 0x00, 0x00,
  0x04, 0x00, 0x00, 0x00, 0x6d, 0x61, 0x69, 0x6e, 0x00, 0x00, 0x00, 0x00,
  0x8a, 0xff, 0xff, 0xff, 0x00, 0x00, 0x00, 0x08, 0x18, 0x00, 0x00, 0x00,
  0x0c, 0x00, 0x00, 0x00, 0x04, 0x00, 0x00, 0x00, 0xa8, 0xee, 0xff, 0xff,
  0x01, 0x00, 0x00, 0x00, 0x09, 0x00, 0x00, 0x00, 0x03, 0x00, 0x00, 0x00,
  0x08, 0x00, 0x00, 0x00, 0x05, 0x00, 0x00, 0x00, 0x02, 0x00, 0x00, 0x00,
  0x20, 0xef, 0xff, 0xff, 0x14, 0x00, 0x00, 0x00, 0x0a, 0x00, 0x00, 0x00,
  0x18, 0x00, 0x00, 0x00, 0x30, 0x00, 0x00, 0x00, 0x20, 0x00, 0x00, 0x00,
  0x02, 0x00, 0x00, 0x00, 0x01, 0x00, 0x00, 0x00, 0x02, 0x00, 0x00, 0x00,
  0x08, 0x00, 0x00, 0x00, 0x49, 0x64, 0x65, 0x6e, 0x74, 0x69, 0x74, 0x79,
  0x00, 0x00, 0x00, 0x00, 0x02, 0x00, 0x00, 0x00, 0xff, 0xff, 0xff, 0xff,
  0x02, 0x00, 0x00, 0x00, 0x4c, 0xf0, 0xff, 0xff, 0x00, 0x00, 0x0e, 0x00,
  0x14, 0x00, 0x00, 0x00, 0x08, 0x00, 0x0c, 0x00, 0x07, 0x00, 0x10, 0x00,
  0x0e, 0x00, 0x00, 0x00, 0x00, 0x00, 0x00, 0x08, 0x1c, 0x00, 0x00, 0x00,
  0x10, 0x00, 0x00, 0x00, 0x04, 0x00, 0x00, 0x00, 0x2a, 0xff, 0xff, 0xff,
  0x00, 0x00, 0x00, 0x01, 0x01, 0x00, 0x00, 0x00, 0x08, 0x00, 0x00, 0x00,
  0x03, 0x00, 0x00, 0x00, 0x07, 0x00, 0x00, 0x00, 0x04, 0x00, 0x00, 0x00,
  0x01, 0x00, 0x00, 0x00, 0xa8, 0xef, 0xff, 0xff, 0x14, 0x00, 0x00, 0x00,
  0x09, 0x00, 0x00, 0x00, 0x18, 0x00, 0x00, 0x00, 0x7c, 0x00, 0x00, 0x00,
  0x6c, 0x00, 0x00, 0x00, 0x02, 0x00, 0x00, 0x00, 0x01, 0x00, 0x00, 0x00,
  0x19, 0x00, 0x00, 0x00, 0x55, 0x00, 0x00, 0x00, 0x73, 0x65, 0x71, 0x75,
  0x65, 0x6e, 0x74, 0x69, 0x61, 0x6c, 0x5f, 0x33, 0x2f, 0x64, 0x65, 0x6e,
  0x73, 0x65, 0x5f, 0x31, 0x30, 0x2f, 0x4d, 0x61, 0x74, 0x4d, 0x75, 0x6c,
  0x3b, 0x73, 0x65, 0x71, 0x75, 0x65, 0x6e, 0x74, 0x69, 0x61, 0x6c, 0x5f,
  0x33, 0x2f, 0x64, 0x65, 0x6e, 0x73, 0x65, 0x5f, 0x31, 0x30, 0x2f, 0x52,
  0x65, 0x6c, 0x75, 0x3b, 0x73, 0x65, 0x71, 0x75, 0x65, 0x6e, 0x74, 0x69,
  0x61, 0x6c, 0x5f, 0x33, 0x2f, 0x64, 0x65, 0x6e, 0x73, 0x65, 0x5f, 0x31,
  0x30, 0x2f, 0x42, 0x69, 0x61, 0x73, 0x41, 0x64, 0x64, 0x00, 0x00, 0x00,
  0x02, 0x00, 0x00, 0x00, 0xff, 0xff, 0xff, 0xff, 0x19, 0x00, 0x00, 0x00,
  0x20, 0xf1, 0xff, 0xff, 0x00, 0x00, 0x0e, 0x00, 0x16, 0x00, 0x00, 0x00,
  0x08, 0x00, 0x0c, 0x00, 0x07, 0x00, 0x10, 0x00, 0x0e, 0x00, 0x00, 0x00,
  0x00, 0x00, 0x00, 0x08, 0x24, 0x00, 0x00, 0x00, 0x18, 0x00, 0x00, 0x00,
  0x0c, 0x00, 0x00, 0x00, 0x00, 0x00, 0x06, 0x00, 0x08, 0x00, 0x07, 0x00,
  0x06, 0x00, 0x00, 0x00, 0x00, 0x00, 0x00, 0x01, 0x01, 0x00, 0x00, 0x00,
  0x07, 0x00, 0x00, 0x00, 0x03, 0x00, 0x00, 0x00, 0x00, 0x00, 0x00, 0x00,
  0x06, 0x00, 0x00, 0x00, 0x03, 0x00, 0x00, 0x00, 0x0c, 0x00, 0x10, 0x00,
  0x0b, 0x00, 0x00, 0x00, 0x0c, 0x00, 0x04, 0x00, 0x0c, 0x00, 0x00, 0x00,
  0x09, 0x00, 0x00, 0x00, 0x00, 0x00, 0x00, 0x09, 0x01, 0x00, 0x00, 0x00,
  0xa0, 0xf0, 0xff, 0xff, 0x14, 0x00, 0x00, 0x00, 0x08, 0x00, 0x00, 0x00,
  0x18, 0x00, 0x00, 0x00, 0x78, 0x00, 0x00, 0x00, 0x68, 0x00, 0x00, 0x00,
  0x02, 0x00, 0x00, 0x00, 0x01, 0x00, 0x00, 0x00, 0x19, 0x00, 0x00, 0x00,
  0x52, 0x00, 0x00, 0x00, 0x73, 0x65, 0x71, 0x75, 0x65, 0x6e, 0x74, 0x69,
  0x61, 0x6c, 0x5f, 0x33, 0x2f, 0x64, 0x65, 0x6e, 0x73, 0x65, 0x5f, 0x39,
  0x2f, 0x4d, 0x61, 0x74, 0x4d, 0x75, 0x6c, 0x3b, 0x73, 0x65, 0x71, 0x75,
  0x65, 0x6e, 0x74, 0x69, 0x61, 0x6c, 0x5f, 0x33, 0x2f, 0x64, 0x65, 0x6e,
  0x73, 0x65, 0x5f, 0x39, 0x2f, 0x52, 0x65, 0x6c, 0x75, 0x3b, 0x73, 0x65,
  0x71, 0x75, 0x65, 0x6e, 0x74, 0x69, 0x61, 0x6c, 0x5f, 0x33, 0x2f, 0x64,
  0x65, 0x6e, 0x73, 0x65, 0x5f, 0x39, 0x2f, 0x42, 0x69, 0x61, 0x73, 0x41,
  0x64, 0x64, 0x00, 0x00, 0x02, 0x00, 0x00, 0x00, 0xff, 0xff, 0xff, 0xff,
  0x19, 0x00, 0x00, 0x00, 0xcc, 0xf0, 0xff, 0xff, 0x0e, 0xf2, 0xff, 0xff,
  0x04, 0x00, 0x00, 0x00, 0x2c, 0x01, 0x00, 0x00, 0x63, 0x9f, 0x64, 0x3d,
  0xe3, 0x08, 0x7b, 0x3d, 0x28, 0xc2, 0x12, 0x3f, 0x70, 0x85, 0x9d, 0x3e,
  0x79, 0x55, 0xaf, 0x3e, 0xf0, 0xa4, 0x32, 0x3e, 0x00, 0x90, 0x25, 0xbb,
  0x60, 0x9a, 0x57, 0xbd, 0x22, 0x48, 0x47, 0xbe, 0x2c, 0xad, 0x0d, 0x3e,
  0x16, 0x94, 0xe1, 0xbe, 0x6e, 0x46, 0x39, 0xbe, 0x80, 0x96, 0x28, 0x3d,
  0x15, 0x66, 0xd8, 0xbe, 0x76, 0x69, 0x11, 0xbe, 0xae, 0xfb, 0xda, 0xbe,
  0x33, 0x10, 0x93, 0xbe, 0x8b, 0x24, 0xde, 0xbe, 0x43, 0x31, 0xea, 0xbe,
  0x74, 0x9e, 0xa6, 0x3e, 0x76, 0x24, 0xcf, 0xbe, 0x26, 0x41, 0x30, 0xbe,
  0xc0, 0x40, 0x74, 0x3d, 0xd2, 0x4e, 0x77, 0xbe, 0x2b, 0xd7, 0xfc, 0x3e,
  0xa5, 0x4d, 0x1b, 0x3f, 0x7c, 0xcc, 0x1a, 0x3f, 0xd9, 0xeb, 0x06, 0x3f,
  0xae, 0x4a, 0x65, 0x3e, 0x17, 0x7b, 0x8c, 0x3d, 0x9f, 0xee, 0x8d, 0xbe,
  0x3d, 0xf6, 0x85, 0xbe, 0x25, 0x6f, 0x8e, 0x3e, 0x58, 0xb8, 0xbf, 0x3d,
  0xc7, 0xdd, 0x98, 0x3e, 0x31, 0x6f, 0x56, 0xbe, 0x0e, 0xfc, 0x9f, 0xbe,
  0x25, 0x07, 0xe8, 0xbe, 0x20, 0x28, 0x93, 0x3e, 0x58, 0xc0, 0x99, 0xbe,
  0x2f, 0xbd, 0xfb, 0x3e, 0xa6, 0x1d, 0x2a, 0xbe, 0xcc, 0x15, 0x2d, 0x3e,
  0x26, 0x89, 0x0c, 0x3f, 0x4b, 0x91, 0xc4, 0x3e, 0x58, 0xbd, 0x2b, 0xbe,
  0xd2, 0x72, 0x40, 0xbe, 0xa0, 0x4d, 0x80, 0xbe, 0x14, 0x00, 0xdb, 0xbd,
  0x60, 0x26, 0x31, 0xbe, 0x60, 0xc6, 0x15, 0x3c, 0xa7, 0xd9, 0x48, 0x3e,
  0x20, 0x28, 0x0c, 0x3f, 0x58, 0x62, 0x07, 0x3f, 0xb4, 0x26, 0x1a, 0xbe,
  0x66, 0xb6, 0x8e, 0xbe, 0x61, 0x3c, 0x52, 0x3e, 0xfa, 0xf0, 0xb6, 0x3e,
  0x63, 0x48, 0x38, 0x3e, 0xac, 0x74, 0x31, 0x3e, 0xf8, 0xe4, 0x1c, 0xbe,
  0xa7, 0x95, 0xe6, 0xbe, 0x88, 0x7f, 0x43, 0xbd, 0x67, 0x6d, 0x75, 0xbe,
  0xf5, 0xd7, 0x44, 0x3d, 0x81, 0x58, 0x72, 0x3d, 0xe4, 0xc2, 0x14, 0xbe,
  0xc0, 0x74, 0xa8, 0xbb, 0x16, 0x83, 0xa5, 0xbe, 0xb8, 0xb7, 0xc7, 0x3d,
  0x1c, 0x20, 0xb9, 0x3e, 0xda, 0xcb, 0xc9, 0xbe, 0x33, 0xc9, 0x0a, 0x3f,
  0x4d, 0x33, 0xb5, 0x3e, 0x62, 0xab, 0xdb, 0x3e, 0xce, 0xf2, 0xff, 0xff,
  0x10, 0x00, 0x00, 0x00, 0x07, 0x00, 0x00, 0x00, 0x14, 0x00, 0x00, 0x00,
  0x30, 0x00, 0x00, 0x00, 0x02, 0x00, 0x00, 0x00, 0x19, 0x00, 0x00, 0x00,
  0x03, 0x00, 0x00, 0x00, 0x1b, 0x00, 0x00, 0x00, 0x73, 0x65, 0x71, 0x75,
  0x65, 0x6e, 0x74, 0x69, 0x61, 0x6c, 0x5f, 0x33, 0x2f, 0x64, 0x65, 0x6e,
  0x73, 0x65, 0x5f, 0x39, 0x2f, 0x4d, 0x61, 0x74, 0x4d, 0x75, 0x6c, 0x00,
  0x48, 0xf2, 0xff, 0xff, 0x8a, 0xf3, 0xff, 0xff, 0x04, 0x00, 0x00, 0x00,
  0xc8, 0x00, 0x00, 0x00, 0x41, 0x79, 0xc1, 0x3e, 0x71, 0xaf, 0xdb, 0x3e,
  0xe4, 0xf2, 0x8a, 0xbe, 0xe9, 0x49, 0x93, 0x3e, 0x2b, 0x5a, 0x98, 0xbe,
  0x81, 0x28, 0x4b, 0xbe, 0x62, 0xb4, 0x71, 0xbe, 0x3c, 0xcb, 0x99, 0x3d,
  0xdb, 0x02, 0xe5, 0x3e, 0x46, 0xbb, 0x07, 0x3e, 0x82, 0x36, 0x1f, 0x3f,
  0x52, 0x23, 0xb7, 0x3e, 0x9a, 0x65, 0x8d, 0xbe, 0xad, 0x5f, 0x60, 0xbd,
  0xf1, 0x5c, 0xe6, 0x3e, 0xa0, 0xdc, 0x8a, 0xbc, 0x8e, 0x46, 0x12, 0x3e,
  0x5c, 0x93, 0x99, 0xbe, 0xae, 0x35, 0x5c, 0x3e, 0xee, 0x6c, 0xce, 0xbe,
  0x9b, 0x9c, 0x1c, 0x3f, 0xb5, 0xd3, 0x9e, 0x3e, 0xee, 0x28, 0x81, 0xbe,
  0x80, 0x3d, 0xc8, 0xbb, 0xfa, 0xef, 0x5c, 0xbe, 0x39, 0xdc, 0x12, 0x3e,
  0x72, 0xaa, 0x6d, 0x3e, 0x98, 0x97, 0xf0, 0x3e, 0xbb, 0x57, 0xf0, 0x3e,
  0x6c, 0xf7, 0xef, 0x3d, 0xb0, 0x33, 0x2f, 0xbe, 0x67, 0xee, 0xc6, 0x3e,
  0x7e, 0x2e, 0x29, 0x3e, 0xdb, 0x44, 0x83, 0x3e, 0x62, 0xbd, 0xf3, 0xbd,
  0x05, 0x2c, 0xbf, 0x3c, 0x12, 0x81, 0xa2, 0x3e, 0xee, 0x12, 0xd2, 0xbe,
  0x4e, 0xf7, 0xaa, 0xbe, 0xeb, 0x09, 0xbe, 0x3e, 0x24, 0xca, 0xfd, 0x3d,
  0x0d, 0xcd, 0x83, 0xbe, 0x40, 0x06, 0x39, 0xbd, 0x82, 0xd2, 0x25, 0xbe,
  0x39, 0x65, 0xc8, 0xbd, 0x75, 0x76, 0xcc, 0x3e, 0x81, 0xc6, 0xca, 0x3d,
  0x0b, 0x9b, 0xf1, 0x3e, 0x3c, 0xc3, 0xd5, 0x3d, 0xa0, 0x5d, 0x68, 0x3d,
  0xe6, 0xf3, 0xff, 0xff, 0x10, 0x00, 0x00, 0x00, 0x06, 0x00, 0x00, 0x00,
  0x14, 0x00, 0x00, 0x00, 0x34, 0x00, 0x00, 0x00, 0x02, 0x00, 0x00, 0x00,
  0x02, 0x00, 0x00, 0x00, 0x19, 0x00, 0x00, 0x00, 0x1c, 0x00, 0x00, 0x00,
  0x73, 0x65, 0x71, 0x75, 0x65, 0x6e, 0x74, 0x69, 0x61, 0x6c, 0x5f, 0x33,
  0x2f, 0x64, 0x65, 0x6e, 0x73, 0x65, 0x5f, 0x31, 0x31, 0x2f, 0x4d, 0x61,
  0x74, 0x4d, 0x75, 0x6c, 0x00, 0x00, 0x00, 0x00, 0x64, 0xf3, 0xff, 0xff,
  0xa6, 0xf4, 0xff, 0xff, 0x04, 0x00, 0x00, 0x00, 0xc4, 0x09, 0x00, 0x00,
  0x50, 0xe4, 0xf6, 0x3e, 0xf5, 0xfe, 0x86, 0x3e, 0x8b, 0x14, 0x8f, 0xbe,
  0xd8, 0xf5, 0x54, 0xbd, 0x00, 0xac, 0xde, 0xbd, 0x46, 0x96, 0x7f, 0xbe,
  0xfe, 0x7a, 0x84, 0x3e, 0xfc, 0x78, 0x9a, 0x3e, 0x2e, 0x7c, 0xe8, 0x3e,
  0xfd, 0x24, 0xd5, 0x3e, 0x4d, 0xdc, 0x8a, 0xbe, 0x2a, 0xcf, 0xbc, 0x3c,
  0x7e, 0xa4, 0xa0, 0xbe, 0xb2, 0x36, 0xe8, 0x3e, 0x11, 0x04, 0x99, 0xbd,
  0x8d, 0x0b, 0x8e, 0xbe, 0x42, 0xf8, 0x92, 0x3e, 0x85, 0x2b, 0xd3, 0x3e,
  0xf7, 0x0e, 0x78, 0x3d, 0x14, 0x24, 0x52, 0x3c, 0xfb, 0x2f, 0x60, 0xbe,
  0xbb, 0xe0, 0x13, 0x3e, 0x79, 0xa5, 0x78, 0xbe, 0xa0, 0xfa, 0x61, 0xbe,
  0x89, 0x1e, 0xa6, 0x3d, 0x14, 0x0a, 0x74, 0xbe, 0x48, 0xea, 0xca, 0xbd,
  0x70, 0x19, 0x83, 0xbc, 0xf8, 0xac, 0x16, 0x3e, 0x8b, 0x49, 0xb1, 0xbe,
  0xa0, 0xd4, 0x48, 0xbd, 0x20, 0xe8, 0x4e, 0x3e, 0xa0, 0xd8, 0x0b, 0x3d,
  0xe4, 0x3a, 0x40, 0x3e, 0xab, 0x2b, 0x77, 0xbe, 0xe4, 0xb6, 0xba, 0x3d,
  0xec, 0xb5, 0x35, 0x3e, 0xd0, 0x21, 0xa5, 0x3d, 0xd8, 0x39, 0xae, 0xbe,
  0x90, 0x36, 0x76, 0xbe, 0x4c, 0xdb, 0xa9, 0x3e, 0x30, 0xed, 0x97, 0xbc,
  0x88, 0xcb, 0x5d, 0x3e, 0x48, 0xab, 0x9c, 0x3e, 0x0c, 0xc6, 0xa7, 0xbd,
  0x94, 0x4b, 0xd8, 0x3d, 0x46, 0xff, 0x83, 0x3e, 0x30, 0x72, 0x77, 0x3e,
  0xb3, 0xc2, 0x26, 0xbe, 0xd8, 0xec, 0x75, 0xbe, 0xd0, 0x33, 0xc0, 0x3e,
  0x6a, 0xa1, 0xf5, 0x3e, 0xc4, 0x8c, 0x70, 0x3e, 0x08, 0x58, 0x0c, 0x3d,
  0x6a, 0x3f, 0x4a, 0xbe, 0x98, 0x97, 0x26, 0x3e, 0x87, 0x8b, 0x73, 0xbe,
  0xda, 0xdf, 0x97, 0x3e, 0x59, 0x81, 0x9a, 0xbd, 0xdb, 0x56, 0xc6, 0x3e,
  0xae, 0xdc, 0x65, 0xbf, 0x66, 0x3b, 0x2a, 0x3e, 0x4f, 0x2d, 0x26, 0xbe,
  0x69, 0xad, 0xe8, 0x3e, 0x77, 0x03, 0xcb, 0x3e, 0x6a, 0xc9, 0x9d, 0x3e,
  0xc4, 0x50, 0xcd, 0x3d, 0xbe, 0xdb, 0x02, 0x3f, 0x16, 0x03, 0xa9, 0x3e,
  0xd6, 0xa9, 0xed, 0x3e, 0xf0, 0x5d, 0x3f, 0x3d, 0x8e, 0x1f, 0xc4, 0xbd,
  0x10, 0x9c, 0xb0, 0xbc, 0x20, 0x25, 0x02, 0xbd, 0x4b, 0x3f, 0xa0, 0x3e,
  0x1e, 0x0d, 0x71, 0xbe, 0xa4, 0x89, 0xe4, 0x3d, 0x48, 0x72, 0x1c, 0xbd,
  0x58, 0x52, 0x80, 0xbe, 0x40, 0x44, 0x37, 0x3e, 0x7a, 0x05, 0x2c, 0xbe,
  0x68, 0xcf, 0xa8, 0xbd, 0xf6, 0xf6, 0x0a, 0x3e, 0x84, 0x8c, 0x2d, 0x3e,
  0x30, 0x90, 0xd6, 0xbc, 0x00, 0xcb, 0x3b, 0xbb, 0x88, 0xbe, 0x8d, 0x3e,
  0x50, 0xd7, 0xae, 0x3c, 0x7c, 0x53, 0x96, 0xbe, 0x86, 0x4b, 0x89, 0xbe,
  0xc8, 0x3f, 0x93, 0xbe, 0x74, 0x0c, 0x8d, 0xbe, 0x58, 0x5d, 0x66, 0xbe,
  0xc0, 0xb9, 0x4f, 0xbc, 0x76, 0x2c, 0x9a, 0x3e, 0x74, 0xe0, 0xf6, 0x3d,
  0xb8, 0xa0, 0x02, 0xbd, 0x00, 0x8e, 0xe6, 0x3b, 0x1c, 0x5d, 0x81, 0xbd,
  0x7a, 0x80, 0x2c, 0xbe, 0x58, 0xbf, 0x98, 0x3d, 0x00, 0xc9, 0x81, 0x3b,
  0x94, 0xeb, 0x9d, 0x3d, 0x18, 0xa2, 0x71, 0xbe, 0xbc, 0x0b, 0xe0, 0x3d,
  0xea, 0xb0, 0x03, 0x3e, 0x24, 0xcc, 0x9a, 0xbe, 0x1c, 0x2f, 0x0f, 0xbe,
  0xad, 0xeb, 0x92, 0xbe, 0x84, 0x9a, 0x8b, 0x3e, 0xb8, 0x14, 0x4c, 0x3d,
  0x58, 0x71, 0x42, 0x3e, 0x4f, 0xc0, 0x38, 0xbe, 0xac, 0x7c, 0x80, 0xbe,
  0x10, 0x97, 0x2c, 0xbd, 0xc0, 0x28, 0x07, 0xbd, 0xa8, 0xd9, 0xaa, 0x3e,
  0x00, 0xd7, 0x5b, 0xbd, 0x3c, 0xb7, 0xf3, 0x3d, 0x64, 0x9d, 0x2e, 0x3e,
  0x34, 0x3b, 0x65, 0x3e, 0xf0, 0x24, 0xa9, 0xbc, 0x40, 0x9d, 0xec, 0xbc,
  0x08, 0xab, 0xc5, 0xbd, 0x7d, 0x86, 0x9f, 0xbe, 0x2c, 0x81, 0x94, 0x3e,
  0x35, 0xe8, 0x7c, 0xbe, 0xc4, 0x7c, 0xb0, 0x3d, 0x44, 0x6a, 0x74, 0x3e,
  0x8b, 0x1d, 0x46, 0xbe, 0x38, 0x21, 0xfa, 0x3d, 0x38, 0x21, 0x40, 0xbd,
  0xb4, 0xd5, 0xce, 0xbd, 0x45, 0xbe, 0x25, 0xbc, 0xe1, 0xaf, 0xa7, 0x3e,
  0xe0, 0x9a, 0x68, 0xbd, 0x12, 0x05, 0x7d, 0xbe, 0xa1, 0x1a, 0x83, 0xbe,
  0x70, 0x55, 0x85, 0xbd, 0x3a, 0x82, 0x6a, 0xbe, 0x9a, 0x6b, 0x0e, 0x3e,
  0x89, 0xfd, 0x40, 0xbe, 0x66, 0x9a, 0x0f, 0xbe, 0x54, 0xa4, 0x4f, 0x3e,
  0x6b, 0x79, 0x2d, 0xbe, 0x54, 0xe4, 0x74, 0x3e, 0x82, 0x0b, 0xa5, 0x3e,
  0x88, 0x1d, 0xa9, 0xbe, 0x9f, 0xf3, 0x74, 0xbe, 0x5a, 0x14, 0x01, 0x3e,
  0x80, 0xdb, 0x29, 0x3e, 0xf4, 0x9e, 0x3e, 0x3e, 0x6e, 0x4c, 0xd1, 0xbd,
  0x24, 0x31, 0xa7, 0x3d, 0xf4, 0x21, 0x87, 0x3d, 0xc0, 0x6a, 0x23, 0xbd,
  0x16, 0xd0, 0xf6, 0xbd, 0x40, 0x93, 0x91, 0xbe, 0x92, 0x53, 0xd3, 0xbd,
  0xd1, 0x40, 0x89, 0xbe, 0xa8, 0xba, 0x9c, 0x3d, 0x88, 0xf2, 0x44, 0x3e,
  0x8c, 0xaf, 0x9d, 0x3e, 0x24, 0x54, 0xde, 0xbd, 0xd6, 0x6a, 0xdc, 0xbd,
  0xd4, 0xc6, 0x27, 0x3e, 0x54, 0x7e, 0x7d, 0x3e, 0x06, 0xc5, 0x98, 0xbe,
  0xac, 0x16, 0x8d, 0x3d, 0x43, 0xc6, 0x48, 0xbe, 0x91, 0x26, 0x56, 0xbe,
  0x00, 0x5d, 0xbe, 0x3b, 0x70, 0xec, 0x63, 0xbe, 0x43, 0x8f, 0x77, 0xbe,
  0x54, 0x6d, 0x52, 0x3e, 0xb0, 0xf5, 0x1b, 0xbd, 0x74, 0x83, 0x8a, 0x3e,
  0x64, 0xa2, 0x4c, 0x3e, 0x3e, 0x5f, 0x82, 0xbe, 0x18, 0x24, 0x75, 0x3d,
  0x50, 0xa3, 0xb9, 0xbc, 0x6c, 0x33, 0x2c, 0xbe, 0x88, 0xb2, 0xa5, 0x3e,
  0xb8, 0xd5, 0x9a, 0xbd, 0x0f, 0xa2, 0x9f, 0xbe, 0x74, 0x23, 0x9b, 0x3d,
  0x87, 0x17, 0x98, 0xbe, 0x9c, 0x57, 0x7a, 0x3e, 0x80, 0xe6, 0x48, 0xbe,
  0x80, 0xff, 0x2a, 0x3d, 0xac, 0xe7, 0x92, 0xbd, 0xf4, 0x6a, 0x8f, 0x3e,
  0x9d, 0x22, 0x01, 0xbe, 0x2e, 0x19, 0x77, 0xbe, 0xd9, 0xac, 0xa4, 0xbe,
  0xe4, 0xb3, 0x3e, 0x3e, 0x0e, 0x14, 0x14, 0x3e, 0x75, 0x7c, 0x0b, 0xbe,
  0x85, 0x55, 0x8e, 0xbe, 0x1c, 0x1a, 0x4b, 0xbe, 0xcb, 0xa9, 0x21, 0xbe,
  0xc6, 0xee, 0x8d, 0x3e, 0xb0, 0x45, 0x3b, 0x3e, 0x54, 0xdf, 0xe7, 0xbd,
  0x68, 0xf5, 0x59, 0x3d, 0xc2, 0xc1, 0x91, 0x3e, 0x32, 0x2c, 0x39, 0xbe,
  0xe0, 0x62, 0xf5, 0x3c, 0xc0, 0x97, 0x6b, 0xbd, 0x22, 0x1d, 0xe3, 0xbd,
  0x7d, 0x4c, 0x8f, 0xbe, 0x84, 0x24, 0x54, 0x3e, 0x8c, 0x84, 0xdf, 0xbd,
  0x48, 0x06, 0x64, 0xbd, 0x96, 0xa5, 0x99, 0xbe, 0x88, 0xcd, 0x29, 0x3d,
  0x04, 0x7b, 0xf0, 0x3d, 0x82, 0xb5, 0x55, 0xbe, 0x80, 0x47, 0x53, 0x3e,
  0xec, 0xb1, 0x85, 0x3d, 0x10, 0xa3, 0xb9, 0x3d, 0x6e, 0x18, 0xb1, 0xbe,
  0x80, 0xcc, 0x6d, 0x3b, 0xd6, 0x86, 0x01, 0xbe, 0x3e, 0x65, 0x9d, 0x3e,
  0xbb, 0xb5, 0xd7, 0x3d, 0xca, 0x54, 0x27, 0xbe, 0xb0, 0x95, 0x2e, 0x3e,
  0xdc, 0x30, 0xdc, 0xbd, 0x6f, 0x90, 0x24, 0xbe, 0x00, 0x7b, 0xde, 0x3c,
  0x0a, 0x0c, 0x3b, 0xbe, 0xf8, 0x8e, 0x1f, 0x3e, 0xb8, 0x14, 0x94, 0x3e,
  0xa8, 0xce, 0x27, 0xbe, 0x1b, 0xdf, 0x46, 0xbe, 0x4d, 0x5c, 0x52, 0x3e,
  0x10, 0x68, 0x84, 0x3e, 0x0e, 0xe6, 0xa5, 0xbe, 0x6a, 0x7e, 0xc6, 0xbc,
  0xd2, 0xae, 0x4d, 0xbe, 0x50, 0x35, 0xae, 0xbd, 0x5b, 0xa3, 0x6c, 0xbe,
  0xf3, 0x4e, 0xaa, 0x3c, 0xec, 0xd2, 0xd5, 0x3c, 0xd0, 0xca, 0x21, 0xbe,
  0x95, 0xa0, 0x73, 0x3e, 0x50, 0xac, 0xa0, 0xbd, 0x5c, 0x5e, 0x32, 0xbe,
  0xaf, 0x68, 0x9e, 0xbe, 0x03, 0x15, 0xd7, 0xbc, 0xba, 0x2b, 0xa3, 0x3e,
  0x06, 0xec, 0x84, 0xbe, 0xd4, 0x63, 0x77, 0xbe, 0xd0, 0x01, 0x08, 0x3e,
  0xf4, 0xcb, 0xc1, 0x3d, 0x67, 0xad, 0xaf, 0xbe, 0x40, 0xdc, 0x84, 0x3c,
  0x1b, 0x0a, 0xbe, 0x3e, 0x4f, 0x73, 0xfa, 0x3e, 0x80, 0x98, 0x79, 0xbf,
  0xa9, 0x55, 0xb4, 0xbd, 0x18, 0xe0, 0x29, 0x3e, 0xf3, 0x25, 0x16, 0x3f,
  0x9c, 0x84, 0xda, 0xbd, 0x1e, 0xd5, 0x4e, 0xbe, 0x34, 0x9b, 0x55, 0xbe,
  0x5c, 0x10, 0xcb, 0xbd, 0x4d, 0x47, 0xe5, 0x3d, 0xb3, 0x8f, 0xcd, 0x3e,
  0xec, 0xbf, 0x28, 0x3e, 0xd4, 0xb9, 0x3a, 0xbd, 0xd0, 0xd7, 0xb6, 0xbc,
  0x3c, 0x3e, 0x64, 0x3e, 0xd0, 0x3f, 0x40, 0x3e, 0x8f, 0x20, 0xd9, 0x3d,
  0xae, 0xf5, 0x58, 0x3e, 0x20, 0x28, 0x0c, 0x3e, 0xe1, 0x1b, 0x82, 0xbe,
  0xe0, 0x1e, 0x32, 0x3e, 0x7e, 0xdc, 0x9f, 0x3e, 0xa2, 0x8d, 0xae, 0xbe,
  0x98, 0x94, 0x3b, 0x3d, 0x99, 0xe3, 0x87, 0x3e, 0x48, 0xad, 0x2a, 0x3e,
  0x1b, 0x84, 0x8c, 0xbe, 0x17, 0xc5, 0x77, 0xbe, 0x78, 0x1f, 0xb8, 0xbd,
  0x0a, 0x8f, 0x26, 0x3f, 0x15, 0x00, 0xc7, 0x3e, 0x54, 0xec, 0x18, 0x3e,
  0xf8, 0x9e, 0xae, 0x3d, 0x13, 0xe4, 0x35, 0x3e, 0x00, 0xdb, 0x10, 0x3d,
  0x0a, 0x59, 0x6b, 0xbe, 0x96, 0xf3, 0xae, 0x3e, 0x3b, 0xed, 0x7e, 0xbd,
  0x49, 0x2f, 0x8a, 0xbe, 0xb0, 0xd4, 0xef, 0xbc, 0x34, 0xf9, 0xd8, 0x3e,
  0x65, 0xb5, 0xdc, 0xbd, 0xdb, 0x24, 0x2a, 0x3e, 0xe6, 0xaf, 0x3f, 0xbe,
  0x3d, 0xff, 0xa1, 0xbe, 0x2a, 0x2d, 0x3b, 0xbe, 0x28, 0x8d, 0x3d, 0x3e,
  0x7e, 0x00, 0x95, 0x3e, 0x90, 0xed, 0x66, 0xbd, 0xd4, 0xdd, 0x4f, 0x3d,
  0x9e, 0x00, 0xd7, 0xbd, 0x97, 0x64, 0x5e, 0xbe, 0xc9, 0xc8, 0xa8, 0x3d,
  0xec, 0x32, 0x6f, 0xbe, 0x31, 0xe6, 0x69, 0xbe, 0x42, 0x89, 0x5b, 0xbe,
  0x68, 0x0f, 0xc6, 0x3d, 0x64, 0xbc, 0xc6, 0x3d, 0x4a, 0x63, 0x95, 0x3e,
  0x86, 0xe8, 0xa6, 0xbd, 0xf4, 0x3e, 0x48, 0xbc, 0xb0, 0x7f, 0x11, 0x3e,
  0xb4, 0xd0, 0xa4, 0xbd, 0x58, 0x0d, 0x71, 0xbd, 0x18, 0x11, 0x9a, 0xbd,
  0x46, 0xf2, 0x87, 0xbe, 0x82, 0x13, 0x30, 0xbe, 0x59, 0x55, 0x1c, 0xbe,
  0xde, 0x07, 0xad, 0x3e, 0xbc, 0x5e, 0x71, 0x3e, 0x40, 0xda, 0x4c, 0xbd,
  0xe8, 0x82, 0x1d, 0x3d, 0x40, 0x7f, 0xfa, 0xbc, 0x08, 0xed, 0x6e, 0xbd,
  0xfa, 0xa2, 0xdf, 0x3d, 0x16, 0xfc, 0xc6, 0x3d, 0x78, 0x11, 0x19, 0x3e,
  0xf5, 0x0f, 0x30, 0xbe, 0xc0, 0xb9, 0x74, 0xbd, 0xac, 0xa0, 0x0f, 0x3e,
  0x3f, 0x2e, 0xba, 0xbe, 0x2e, 0x0d, 0x78, 0xbe, 0x20, 0x91, 0x14, 0x3c,
  0x3e, 0x6b, 0x32, 0xbd, 0x77, 0x1d, 0xa4, 0xbc, 0xa8, 0x75, 0x0e, 0x3e,
  0x87, 0x76, 0x91, 0xbe, 0xdd, 0xa7, 0x92, 0x3c, 0x40, 0x8c, 0x9a, 0xbb,
  0xe6, 0x72, 0x1d, 0xbe, 0xde, 0x8e, 0x73, 0x3e, 0xa4, 0x46, 0x82, 0x3e,
  0xdf, 0xfe, 0x24, 0xbe, 0x80, 0xa5, 0x91, 0xbc, 0x86, 0xff, 0xa0, 0xbe,
  0x98, 0x58, 0x52, 0x3e, 0xca, 0x74, 0x22, 0xbe, 0x48, 0xff, 0x59, 0x3e,
  0xe4, 0x6e, 0xa2, 0x3e, 0x78, 0x4e, 0x1b, 0xbe, 0xe8, 0xd2, 0x4a, 0x3d,
  0x3d, 0x24, 0x4b, 0xbe, 0x24, 0xde, 0x85, 0x3d, 0x14, 0x43, 0x96, 0xbd,
  0x72, 0x41, 0x84, 0x3e, 0xfe, 0x90, 0xb0, 0xbe, 0x40, 0x4e, 0xa1, 0x3b,
  0xe4, 0x0c, 0x7b, 0xbe, 0x81, 0xd7, 0x18, 0xbe, 0x48, 0x51, 0x02, 0x3d,
  0x40, 0x24, 0x29, 0xbe, 0x64, 0x76, 0x8c, 0xbe, 0x8a, 0x0b, 0x68, 0xbe,
  0x30, 0xfd, 0x41, 0x3e, 0x8a, 0x1e, 0xeb, 0xbd, 0xc0, 0xad, 0xc3, 0x3b,
  0xce, 0x56, 0xc8, 0xbd, 0xb8, 0x71, 0xcd, 0xbd, 0xab, 0x82, 0x4f, 0xbe,
  0x62, 0x90, 0x9c, 0x3e, 0x39, 0x47, 0x91, 0xbe, 0xd9, 0x1b, 0x1b, 0xbe,
  0xf8, 0xb0, 0x04, 0xbd, 0x04, 0x8f, 0x10, 0x3e, 0x40, 0x5b, 0x3e, 0xbc,
  0xec, 0x1b, 0x99, 0x3d, 0xf9, 0x3f, 0x4b, 0xbe, 0x89, 0x66, 0x70, 0xbe,
  0xd0, 0x74, 0x56, 0xbd, 0x26, 0xb0, 0xd3, 0xbd, 0x28, 0x29, 0x1e, 0xbe,
  0x54, 0x2a, 0xc9, 0x3d, 0xa0, 0x23, 0x4d, 0x3e, 0xec, 0x5c, 0xc1, 0x3d,
  0x87, 0xfa, 0x65, 0xbe, 0xb0, 0x5e, 0x25, 0x3d, 0x0c, 0xde, 0x61, 0xbe,
  0xbc, 0x79, 0x2e, 0xbe, 0x51, 0x25, 0xab, 0xbe, 0x12, 0x36, 0xa1, 0xbe,
  0x10, 0x2c, 0x8c, 0xbd, 0xe6, 0x61, 0x90, 0x3e, 0xc1, 0xb4, 0x6a, 0x3e,
  0xe0, 0x73, 0x40, 0xbc, 0xb8, 0xe1, 0xc7, 0xbd, 0x40, 0x37, 0xa7, 0xbd,
  0xcc, 0x72, 0x74, 0x3e, 0x80, 0xa4, 0x1c, 0xbc, 0x44, 0xa5, 0x2f, 0x3e,
  0x4d, 0x15, 0x90, 0xbe, 0x6d, 0xdc, 0xb4, 0xbe, 0x6f, 0xbf, 0xf2, 0x3d,
  0x0d, 0xc2, 0xf4, 0xbd, 0x90, 0x63, 0x03, 0xbd, 0xf4, 0xfb, 0x34, 0x3e,
  0xca, 0xd6, 0x2e, 0x3e, 0xa0, 0xb4, 0xfe, 0xbc, 0xfb, 0x83, 0x16, 0xbe,
  0x05, 0x73, 0xab, 0xbe, 0x18, 0xb1, 0x96, 0x3b, 0x9c, 0x56, 0xc7, 0x3d,
  0xd0, 0x56, 0xe9, 0x3c, 0xf8, 0x3b, 0xa7, 0x3e, 0x52, 0x7a, 0x27, 0xbe,
  0x3e, 0xd0, 0x81, 0x3e, 0x53, 0xba, 0x92, 0x3e, 0x34, 0x5c, 0xa2, 0x3e,
  0x24, 0x71, 0x56, 0x3e, 0x94, 0x7e, 0x39, 0x3e, 0xd8, 0x41, 0x89, 0xbe,
  0xf0, 0x4a, 0x64, 0xbd, 0x24, 0x44, 0x9f, 0xbe, 0x72, 0x77, 0x34, 0xbe,
  0x58, 0x03, 0x5b, 0xbd, 0xa4, 0x50, 0x7a, 0x3e, 0x40, 0x80, 0x83, 0xbb,
  0x40, 0x8c, 0x44, 0x3d, 0x42, 0x99, 0x79, 0xbe, 0x26, 0x63, 0x0a, 0x3e,
  0x67, 0x13, 0x82, 0xbe, 0x56, 0x55, 0xa5, 0xbe, 0x9c, 0x5a, 0x7e, 0xbe,
  0x70, 0x18, 0x0b, 0xbd, 0xcc, 0x03, 0x97, 0xbe, 0x95, 0xf9, 0x6a, 0xbe,
  0xc0, 0x1b, 0xa9, 0xbc, 0x00, 0xf4, 0xaa, 0x39, 0x35, 0xd3, 0x1b, 0xbe,
  0x70, 0xb3, 0xf3, 0xbc, 0x6c, 0x60, 0x89, 0x3d, 0xb7, 0xea, 0xa1, 0xbe,
  0x60, 0x50, 0x36, 0xbd, 0xf0, 0x0e, 0x84, 0xbe, 0x6c, 0xda, 0x93, 0xbd,
  0xa4, 0xc9, 0x04, 0x3e, 0x04, 0x17, 0x7d, 0xbe, 0xc8, 0x3a, 0x91, 0x3e,
  0xbe, 0x9f, 0xa0, 0x3e, 0x58, 0x65, 0x49, 0xbd, 0xa0, 0x05, 0x01, 0xbe,
  0x00, 0x4b, 0xa0, 0x3e, 0xc8, 0x06, 0x11, 0xbd, 0xc0, 0x60, 0x1e, 0x3e,
  0x85, 0x3f, 0xaa, 0xbe, 0x0e, 0xf5, 0x99, 0x3e, 0xaa, 0x07, 0x84, 0x3e,
  0xe0, 0xe5, 0xdf, 0x3c, 0x3c, 0xfa, 0x10, 0x3e, 0xeb, 0x4d, 0x34, 0xbe,
  0x1f, 0x27, 0x4a, 0xbe, 0xd0, 0x0a, 0x4c, 0x3e, 0xa0, 0xcd, 0x28, 0x3e,
  0x7c, 0x58, 0x4a, 0xbe, 0x8a, 0x93, 0x3f, 0xbe, 0x70, 0xe8, 0x70, 0x3e,
  0xd4, 0xf2, 0x09, 0xbe, 0x99, 0x10, 0x19, 0x3e, 0x59, 0x21, 0x89, 0x3d,
  0x00, 0x4a, 0x29, 0x3d, 0x44, 0xf6, 0x93, 0xbd, 0x20, 0x95, 0x09, 0x3e,
  0x20, 0x7c, 0x4f, 0x3e, 0xfc, 0x3d, 0xa9, 0xbe, 0xf0, 0x50, 0xe2, 0x3c,
  0xdf, 0xc8, 0x9d, 0xbc, 0xa7, 0xaa, 0x2b, 0xbe, 0x83, 0xfd, 0x94, 0xbc,
  0x8e, 0x8f, 0x96, 0xbd, 0xfa, 0xd5, 0xf5, 0xbd, 0xec, 0x39, 0x05, 0x3e,
  0x9d, 0xaa, 0xdb, 0xbc, 0x34, 0xcb, 0x31, 0x3e, 0x30, 0xe6, 0xb8, 0x3c,
  0x96, 0x48, 0x80, 0x3e, 0xfa, 0x65, 0x9f, 0x3e, 0xdb, 0x91, 0x9f, 0x3d,
  0x3c, 0x48, 0xeb, 0x3d, 0x6b, 0x3a, 0x4e, 0xbe, 0x88, 0x4a, 0x21, 0x3d,
  0xc0, 0x52, 0x06, 0xbc, 0x8b, 0xd6, 0xb0, 0xbe, 0x82, 0xfc, 0x6b, 0x3e,
  0xe4, 0x2b, 0x3b, 0x3e, 0x2b, 0xb5, 0x1e, 0xbe, 0xe8, 0x99, 0x6d, 0xbd,
  0x80, 0x89, 0x03, 0xbc, 0x10, 0x1d, 0xdd, 0x3d, 0x10, 0x07, 0x87, 0xbd,
  0x57, 0x3d, 0x48, 0xbe, 0x51, 0xe3, 0xa0, 0xba, 0x79, 0xae, 0x8a, 0xbd,
  0x89, 0xd8, 0x5b, 0xbf, 0xc1, 0x6d, 0x85, 0xbe, 0x40, 0x77, 0x7e, 0xbe,
  0x9e, 0x62, 0x60, 0x3f, 0x03, 0xd6, 0xba, 0x3e, 0x27, 0x90, 0x5f, 0xbe,
  0xc8, 0x4f, 0x4e, 0xbd, 0x85, 0xd5, 0x9a, 0x3e, 0x42, 0x86, 0x90, 0x3e,
  0xdf, 0xc9, 0xb4, 0xbd, 0x34, 0xec, 0x88, 0x3d, 0xa9, 0x61, 0x1b, 0xbd,
  0x80, 0x9b, 0xd7, 0x3b, 0x8b, 0xfc, 0x21, 0xbe, 0xde, 0x0e, 0x2f, 0x3e,
  0xb3, 0x4f, 0x28, 0x3e, 0x8a, 0xe2, 0x06, 0xbe, 0xbc, 0xee, 0x73, 0x3e,
  0x33, 0xed, 0x4c, 0xbe, 0xa4, 0x4c, 0x84, 0x3e, 0x18, 0x55, 0x81, 0xbe,
  0x78, 0x41, 0x97, 0x3d, 0x37, 0x5f, 0x08, 0xbe, 0x97, 0x56, 0xfa, 0x3e,
  0x27, 0x05, 0xcd, 0xbd, 0xcb, 0x77, 0x28, 0xbf, 0x87, 0xbc, 0x57, 0x3e,
  0xbc, 0xe0, 0xa2, 0xbd, 0xa2, 0x4f, 0x11, 0x3f, 0xd1, 0x0d, 0xee, 0x3d,
  0x53, 0x46, 0xab, 0xbe, 0x44, 0x54, 0xa2, 0x3d, 0x2d, 0xc3, 0xb7, 0xbd,
  0xaf, 0xcc, 0xee, 0x3c, 0xb7, 0x79, 0x01, 0x3e, 0x98, 0x27, 0x46, 0x3e,
  0x40, 0xb9, 0xe3, 0x3d, 0xa0, 0xba, 0x91, 0x3c, 0x04, 0x29, 0xdd, 0x3d,
  0x05, 0xa3, 0xa4, 0x3e, 0x89, 0x09, 0x74, 0x3e, 0xb0, 0x1f, 0x07, 0x3f,
  0x8c, 0xc4, 0x26, 0x3e, 0x10, 0x77, 0x57, 0x3e, 0xee, 0x83, 0x54, 0xbe,
  0xac, 0x63, 0x8a, 0x3d, 0xa4, 0x85, 0x8a, 0x3e, 0x00, 0xb9, 0x8c, 0x3e,
  0xdf, 0x98, 0xe8, 0x3d, 0xe3, 0xc2, 0x96, 0x3e, 0xda, 0x34, 0x52, 0xbf,
  0x34, 0xad, 0xd9, 0x3e, 0x10, 0xf5, 0x7c, 0xbd, 0xab, 0x49, 0x2f, 0x3e,
  0xe3, 0xaa, 0xb5, 0x3e, 0xe4, 0x79, 0x17, 0x3e, 0x62, 0x57, 0x8a, 0xbe,
  0x00, 0x58, 0xa0, 0x3e, 0xcb, 0xfb, 0x46, 0xbe, 0x09, 0xbd, 0x21, 0xbe,
  0xed, 0xc2, 0x57, 0xbe, 0x03, 0x23, 0x46, 0xbe, 0x0b, 0x14, 0x17, 0xbe,
  0x00, 0xaa, 0x10, 0xbb, 0x2a, 0x9c, 0x87, 0x3e, 0x5a, 0x03, 0xdb, 0xbd,
  0x00, 0x88, 0x7c, 0xb9, 0xa6, 0x95, 0x99, 0x3e, 0xdc, 0x44, 0x28, 0x3e,
  0xfb, 0x04, 0x58, 0xbe, 0x4c, 0x7a, 0x12, 0x3e, 0xdc, 0xd1, 0x9b, 0xbd,
  0xa8, 0x09, 0x95, 0xbe, 0x20, 0x02, 0x5b, 0xbc, 0x40, 0x46, 0xa6, 0xbb,
  0xde, 0xdf, 0x87, 0x3e, 0xcc, 0xe8, 0x23, 0x3e, 0xfb, 0xc4, 0x86, 0xbe,
  0x18, 0xe4, 0x14, 0xbe, 0x20, 0x64, 0xcc, 0xbd, 0x30, 0x4f, 0x7a, 0xbe,
  0xa8, 0x00, 0x3b, 0x3e, 0xe0, 0x63, 0x64, 0x3d, 0x8d, 0xb0, 0x46, 0xbe,
  0xa4, 0x96, 0x88, 0xbe, 0xc8, 0xb6, 0x6d, 0x3e, 0xa7, 0x6b, 0x75, 0xbe,
  0x10, 0x5c, 0xf0, 0x3d, 0x08, 0x81, 0x4c, 0xbe, 0x4d, 0x77, 0x97, 0xbe,
  0xfb, 0xf5, 0x96, 0x3e, 0xf7, 0x65, 0x69, 0xbd, 0xfe, 0x41, 0x0f, 0x3e,
  0x84, 0xb9, 0xaf, 0x3e, 0x9b, 0xdc, 0x40, 0xbe, 0xf8, 0x1b, 0x6e, 0x3d,
  0xb0, 0x93, 0xce, 0x3c, 0x58, 0x9d, 0xd7, 0x3d, 0x4c, 0x8c, 0x2d, 0xbe,
  0xd5, 0x0c, 0xbb, 0xbe, 0x2c, 0xd0, 0x80, 0x3e, 0xd0, 0x48, 0x8b, 0x3d,
  0x28, 0x9e, 0x0c, 0x3d, 0xb4, 0x5f, 0x7c, 0xbe, 0xf9, 0xb1, 0xb5, 0xbe,
  0x28, 0x32, 0xfc, 0x3d, 0x10, 0xa3, 0x9b, 0x3d, 0xc3, 0x01, 0x35, 0x3e,
  0xf0, 0x5d, 0x26, 0xbe, 0x48, 0xd1, 0x43, 0xbe, 0x0d, 0x6a, 0x04, 0xbe,
  0x6b, 0xe7, 0x0e, 0xbd, 0x8c, 0xf9, 0x84, 0x3d, 0x40, 0x3d, 0x2b, 0xbd,
  0x1d, 0x4e, 0x48, 0x3e, 0xfe, 0xfd, 0xff, 0xff, 0x10, 0x00, 0x00, 0x00,
  0x05, 0x00, 0x00, 0x00, 0x14, 0x00, 0x00, 0x00, 0x34, 0x00, 0x00, 0x00,
  0x02, 0x00, 0x00, 0x00, 0x19, 0x00, 0x00, 0x00, 0x19, 0x00, 0x00, 0x00,
  0x1c, 0x00, 0x00, 0x00, 0x73, 0x65, 0x71, 0x75, 0x65, 0x6e, 0x74, 0x69,
  0x61, 0x6c, 0x5f, 0x33, 0x2f, 0x64, 0x65, 0x6e, 0x73, 0x65, 0x5f, 0x31,
  0x30, 0x2f, 0x4d, 0x61, 0x74, 0x4d, 0x75, 0x6c, 0x00, 0x00, 0x00, 0x00,
  0x7c, 0xfd, 0xff, 0xff, 0xbe, 0xfe, 0xff, 0xff, 0x04, 0x00, 0x00, 0x00,
  0x64, 0x00, 0x00, 0x00, 0x0d, 0x99, 0xe7, 0x3d, 0xca, 0xdb, 0xe0, 0x3d,
  0x00, 0x00, 0x00, 0x00, 0x00, 0x00, 0x00, 0x00, 0x00, 0x00, 0x00, 0x00,
  0x00, 0x00, 0x00, 0x00, 0x00, 0x00, 0x00, 0x00, 0x00, 0x00, 0x00, 0x00,
  0x9c, 0xc7, 0x04, 0x3e, 0x8e, 0x16, 0xda, 0x3d, 0xd1, 0x3d, 0x1d, 0x3f,
  0xf1, 0x17, 0xc2, 0xbd, 0x00, 0x00, 0x00, 0x00, 0xf3, 0xb5, 0x05, 0x3e,
  0x90, 0x11, 0xe1, 0x3d, 0x00, 0x00, 0x00, 0x00, 0x00, 0x00, 0x00, 0x00,
  0xd6, 0xc6, 0xa6, 0x3d, 0xb5, 0x69, 0x75, 0xbc, 0xac, 0x0a, 0x90, 0xbd,
  0x00, 0x00, 0x00, 0x00, 0x6b, 0xfb, 0xc3, 0xbd, 0x00, 0x00, 0x00, 0x00,
  0x00, 0x00, 0x00, 0x00, 0x8b, 0x6d, 0xf5, 0x3d, 0xb6, 0xfe, 0xff, 0xff,
  0x10, 0x00, 0x00, 0x00, 0x04, 0x00, 0x00, 0x00, 0x10, 0x00, 0x00, 0x00,
  0x48, 0x00, 0x00, 0x00, 0x01, 0x00, 0x00, 0x00, 0x19, 0x00, 0x00, 0x00,
  0x34, 0x00, 0x00, 0x00, 0x73, 0x65, 0x71, 0x75, 0x65, 0x6e, 0x74, 0x69,
  0x61, 0x6c, 0x5f, 0x33, 0x2f, 0x64, 0x65, 0x6e, 0x73, 0x65, 0x5f, 0x39,
  0x2f, 0x42, 0x69, 0x61, 0x73, 0x41, 0x64, 0x64, 0x2f, 0x52, 0x65, 0x61,
  0x64, 0x56, 0x61, 0x72, 0x69, 0x61, 0x62, 0x6c, 0x65, 0x4f, 0x70, 0x2f,
  0x72, 0x65, 0x73, 0x6f, 0x75, 0x72, 0x63, 0x65, 0x00, 0x00, 0x00, 0x00,
  0x48, 0xfe, 0xff, 0xff, 0x8a, 0xff, 0xff, 0xff, 0x04, 0x00, 0x00, 0x00,
  0x08, 0x00, 0x00, 0x00, 0x66, 0x25, 0xbb, 0x3d, 0xe5, 0x17, 0xc8, 0x3d,
  0x26, 0xff, 0xff, 0xff, 0x10, 0x00, 0x00, 0x00, 0x03, 0x00, 0x00, 0x00,
  0x10, 0x00, 0x00, 0x00, 0x4c, 0x00, 0x00, 0x00, 0x01, 0x00, 0x00, 0x00,
  0x02, 0x00, 0x00, 0x00, 0x35, 0x00, 0x00, 0x00, 0x73, 0x65, 0x71, 0x75,
  0x65, 0x6e, 0x74, 0x69, 0x61, 0x6c, 0x5f, 0x33, 0x2f, 0x64, 0x65, 0x6e,
  0x73, 0x65, 0x5f, 0x31, 0x31, 0x2f, 0x42, 0x69, 0x61, 0x73, 0x41, 0x64,
  0x64, 0x2f, 0x52, 0x65, 0x61, 0x64, 0x56, 0x61, 0x72, 0x69, 0x61, 0x62,
  0x6c, 0x65, 0x4f, 0x70, 0x2f, 0x72, 0x65, 0x73, 0x6f, 0x75, 0x72, 0x63,
  0x65, 0x00, 0x00, 0x00, 0x04, 0x00, 0x06, 0x00, 0x04, 0x00, 0x00, 0x00,
  0x00, 0x00, 0x06, 0x00, 0x08, 0x00, 0x04, 0x00, 0x06, 0x00, 0x00, 0x00,
  0x04, 0x00, 0x00, 0x00, 0x64, 0x00, 0x00, 0x00, 0x5e, 0x69, 0xd9, 0x3d,
  0x00, 0x00, 0x00, 0x00, 0x89, 0xa3, 0x0c, 0x3e, 0x00, 0x00, 0x00, 0x00,
  0x00, 0x00, 0x00, 0x00, 0xf4, 0x99, 0x2f, 0xbc, 0x00, 0x00, 0x00, 0x00,
  0x00, 0x00, 0x00, 0x00, 0x00, 0x00, 0x00, 0x00, 0x87, 0xba, 0xb9, 0xbc,
  0x2a, 0x67, 0xd4, 0x3d, 0xb8, 0x86, 0xd5, 0x3d, 0x9a, 0xbd, 0x5b, 0xbc,
  0xe9, 0x6b, 0x4f, 0xbd, 0x00, 0x00, 0x00, 0x00, 0x00, 0x00, 0x00, 0x00,
  0xbd, 0x1c, 0x84, 0xbc, 0x00, 0x00, 0x00, 0x00, 0x00, 0x00, 0x00, 0x00,
  0xd1, 0x82, 0xa2, 0xbd, 0x3e, 0x35, 0xd7, 0x3d, 0x45, 0xa3, 0xf2, 0x3d,
  0x13, 0xca, 0x1c, 0x3e, 0x00, 0x00, 0x00, 0x00, 0x53, 0x57, 0xa5, 0xbc,
  0x00, 0x00, 0x0e, 0x00, 0x14, 0x00, 0x04, 0x00, 0x00, 0x00, 0x08, 0x00,
  0x0c, 0x00, 0x10, 0x00, 0x0e, 0x00, 0x00, 0x00, 0x10, 0x00, 0x00, 0x00,
  0x02, 0x00, 0x00, 0x00, 0x10, 0x00, 0x00, 0x00, 0x48, 0x00, 0x00, 0x00,
  0x01, 0x00, 0x00, 0x00, 0x19, 0x00, 0x00, 0x00, 0x35, 0x00, 0x00, 0x00,
  0x73, 0x65, 0x71, 0x75, 0x65, 0x6e, 0x74, 0x69, 0x61, 0x6c, 0x5f, 0x33,
  0x2f, 0x64, 0x65, 0x6e, 0x73, 0x65, 0x5f, 0x31, 0x30, 0x2f, 0x42, 0x69,
  0x61, 0x73, 0x41, 0x64, 0x64, 0x2f, 0x52, 0x65, 0x61, 0x64, 0x56, 0x61,
  0x72, 0x69, 0x61, 0x62, 0x6c, 0x65, 0x4f, 0x70, 0x2f, 0x72, 0x65, 0x73,
  0x6f, 0x75, 0x72, 0x63, 0x65, 0x00, 0x00, 0x00, 0xa0, 0xff, 0xff, 0xff,
  0x14, 0x00, 0x18, 0x00, 0x04, 0x00, 0x00, 0x00, 0x08, 0x00, 0x0c, 0x00,
  0x10, 0x00, 0x00, 0x00, 0x00, 0x00, 0x14, 0x00, 0x14, 0x00, 0x00, 0x00,
  0x14, 0x00, 0x00, 0x00, 0x01, 0x00, 0x00, 0x00, 0x18, 0x00, 0x00, 0x00,
  0x34, 0x00, 0x00, 0x00, 0x24, 0x00, 0x00, 0x00, 0x02, 0x00, 0x00, 0x00,
  0x01, 0x00, 0x00, 0x00, 0x03, 0x00, 0x00, 0x00, 0x0d, 0x00, 0x00, 0x00,
  0x64, 0x65, 0x6e, 0x73, 0x65, 0x5f, 0x39, 0x5f, 0x69, 0x6e, 0x70, 0x75,
  0x74, 0x00, 0x00, 0x00, 0x02, 0x00, 0x00, 0x00, 0xff, 0xff, 0xff, 0xff,
  0x03, 0x00, 0x00, 0x00, 0xfc, 0xff, 0xff, 0xff, 0x04, 0x00, 0x04, 0x00,
  0x04, 0x00, 0x00, 0x00
};
unsigned int fibonacci_tflite_len = 4828;
 
